unsigned char sine_model_quantized_tflite[] = {
  0x1c, 0x00, 0x00, 0x00, 0x54, 0x46, 0x4c, 0x33, 0x14, 0x00, 0x20, 0x00,
  0x1c, 0x00, 0x18, 0x00, 0x14, 0x00, 0x10, 0x00, 0x0c, 0x00, 0x00, 0x00,
  0x08, 0x00, 0x04, 0x00, 0x14, 0x00, 0x00, 0x00, 0x1c, 0x00, 0x00, 0x00,
  0x94, 0x00, 0x00, 0x00, 0xc4, 0x00, 0x00, 0x00, 0x78, 0x06, 0x00, 0x00,
  0x88, 0x06, 0x00, 0x00, 0x10, 0x0b, 0x00, 0x00, 0x03, 0x00, 0x00, 0x00,
  0x01, 0x00, 0x00, 0x00, 0x10, 0x00, 0x00, 0x00, 0x00, 0x00, 0x0a, 0x00,
  0x10, 0x00, 0x0c, 0x00, 0x08, 0x00, 0x04, 0x00, 0x0a, 0x00, 0x00, 0x00,
  0x0c, 0x00, 0x00, 0x00, 0x1c, 0x00, 0x00, 0x00, 0x38, 0x00, 0x00, 0x00,
  0x0f, 0x00, 0x00, 0x00, 0x73, 0x65, 0x72, 0x76, 0x69, 0x6e, 0x67, 0x5f,
  0x64, 0x65, 0x66, 0x61, 0x75, 0x6c, 0x74, 0x00, 0x01, 0x00, 0x00, 0x00,
  0x04, 0x00, 0x00, 0x00, 0xbc, 0xff, 0xff, 0xff, 0x09, 0x00, 0x00, 0x00,
  0x04, 0x00, 0x00, 0x00, 0x07, 0x00, 0x00, 0x00, 0x64, 0x65, 0x6e, 0x73,
  0x65, 0x5f, 0x34, 0x00, 0x01, 0x00, 0x00, 0x00, 0x04, 0x00, 0x00, 0x00,
  0x16, 0xfa, 0xff, 0xff, 0x04, 0x00, 0x00, 0x00, 0x0d, 0x00, 0x00, 0x00,
  0x64, 0x65, 0x6e, 0x73, 0x65, 0x5f, 0x32, 0x5f, 0x69, 0x6e, 0x70, 0x75,
  0x74, 0x00, 0x00, 0x00, 0x01, 0x00, 0x00, 0x00, 0x0c, 0x00, 0x00, 0x00,
  0x08, 0x00, 0x0c, 0x00, 0x08, 0x00, 0x04, 0x00, 0x08, 0x00, 0x00, 0x00,
  0x0b, 0x00, 0x00, 0x00, 0x04, 0x00, 0x00, 0x00, 0x13, 0x00, 0x00, 0x00,
  0x6d, 0x69, 0x6e, 0x5f, 0x72, 0x75, 0x6e, 0x74, 0x69, 0x6d, 0x65, 0x5f,
  0x76, 0x65, 0x72, 0x73, 0x69, 0x6f, 0x6e, 0x00, 0x0c, 0x00, 0x00, 0x00,
  0xb0, 0x05, 0x00, 0x00, 0xa8, 0x05, 0x00, 0x00, 0x94, 0x05, 0x00, 0x00,
  0x3c, 0x05, 0x00, 0x00, 0xec, 0x04, 0x00, 0x00, 0x9c, 0x04, 0x00, 0x00,
  0x8c, 0x00, 0x00, 0x00, 0x3c, 0x00, 0x00, 0x00, 0x34, 0x00, 0x00, 0x00,
  0x2c, 0x00, 0x00, 0x00, 0x24, 0x00, 0x00, 0x00, 0x04, 0x00, 0x00, 0x00,
  0x9a, 0xfa, 0xff, 0xff, 0x04, 0x00, 0x00, 0x00, 0x10, 0x00, 0x00, 0x00,
  0x31, 0x2e, 0x35, 0x2e, 0x30, 0x00, 0x00, 0x00, 0x00, 0x00, 0x00, 0x00,
  0x00, 0x00, 0x00, 0x00, 0x30, 0xf6, 0xff, 0xff, 0x34, 0xf6, 0xff, 0xff,
  0x38, 0xf6, 0xff, 0xff, 0xc2, 0xfa, 0xff, 0xff, 0x04, 0x00, 0x00, 0x00,
  0x40, 0x00, 0x00, 0x00, 0x28, 0x46, 0x8b, 0xbe, 0x9a, 0xb8, 0xf8, 0x3f,
  0x67, 0x7e, 0x0b, 0x3f, 0x10, 0x91, 0x33, 0x3e, 0xca, 0x54, 0x2f, 0x3f,
  0xcc, 0x94, 0x6c, 0x3e, 0x50, 0xaa, 0x6c, 0xbe, 0x1e, 0x89, 0xbc, 0x3f,
  0xc2, 0xa0, 0x6a, 0xbf, 0x50, 0xe4, 0xeb, 0x3e, 0xdd, 0xb7, 0xe1, 0x3c,
  0xd8, 0x8e, 0x61, 0x3f, 0x00, 0x38, 0x01, 0xbe, 0x99, 0x7f, 0x81, 0xbf,
  0xd2, 0xf6, 0x97, 0x3d, 0x5a, 0xb3, 0x78, 0x3f, 0x0e, 0xfb, 0xff, 0xff,
  0x04, 0x00, 0x00, 0x00, 0x00, 0x04, 0x00, 0x00, 0xe9, 0xa7, 0x9d, 0xbd,
  0xd9, 0xa9, 0xc5, 0x3e, 0x91, 0x68, 0x7f, 0xbe, 0xcc, 0x4b, 0xdf, 0xbd,
  0xc8, 0x8a, 0x66, 0x3e, 0x92, 0xa7, 0x68, 0x3e, 0x06, 0xe7, 0x35, 0x3e,
  0x28, 0xa8, 0xdc, 0xbe, 0x11, 0x91, 0xd3, 0x3e, 0x26, 0x29, 0x13, 0x3f,
  0xd0, 0x23, 0x90, 0xbe, 0x32, 0xda, 0x25, 0x3e, 0x9e, 0xd2, 0x5e, 0x3e,
  0xeb, 0x44, 0x76, 0xbe, 0x7d, 0x29, 0x5a, 0xbe, 0x54, 0x9e, 0xf6, 0x3e,
  0x8a, 0x84, 0x18, 0x3f, 0x26, 0x5d, 0xa8, 0xbe, 0xf4, 0xf7, 0x84, 0xbe,
  0xed, 0x00, 0x9f, 0x3e, 0x18, 0xd8, 0x78, 0xbe, 0xb4, 0x6a, 0xb7, 0xbd,
  0x59, 0x77, 0x89, 0xbe, 0xb1, 0x07, 0xc4, 0x3e, 0x36, 0x72, 0x73, 0x3e,
  0x0e, 0xa1, 0xae, 0x3d, 0x06, 0x80, 0x2e, 0x3e, 0x74, 0xdc, 0x8d, 0x3d,
  0x00, 0x95, 0xcb, 0xbc, 0x20, 0x76, 0xbe, 0xbc, 0xc1, 0x74, 0xa4, 0xbe,
  0x6c, 0x8d, 0x14, 0xbe, 0xba, 0x5d, 0x3b, 0xbf, 0xf0, 0xf7, 0xd7, 0x3c,
  0x0d, 0x30, 0x9e, 0xbe, 0x1d, 0xa7, 0xba, 0xbe, 0x74, 0x27, 0x33, 0x3e,
  0x1a, 0x3f, 0x2e, 0xbe, 0x65, 0xa0, 0xd3, 0x3e, 0x66, 0x5b, 0x0f, 0x3e,
  0x45, 0x8d, 0xc7, 0xbe, 0x42, 0x3f, 0xc1, 0x3e, 0xf4, 0x2a, 0xba, 0xbd,
  0xe2, 0x72, 0x41, 0x3e, 0xe4, 0xc6, 0x76, 0xbe, 0x47, 0x35, 0xc8, 0xbe,
  0x04, 0x0d, 0xd7, 0xbe, 0xcd, 0x75, 0xfb, 0x3e, 0x2f, 0xcf, 0x87, 0x3d,
  0x31, 0xfb, 0x6f, 0xbe, 0x8b, 0x06, 0x95, 0x3e, 0x55, 0xef, 0xd4, 0xbe,
  0x17, 0x59, 0x83, 0x3e, 0x2d, 0x94, 0xdd, 0x3e, 0xc4, 0x9c, 0x79, 0xbe,
  0x85, 0x7b, 0xd8, 0x3e, 0xcd, 0x60, 0xd6, 0xbe, 0x12, 0xfd, 0xd0, 0xbe,
  0xa2, 0x61, 0x04, 0x3e, 0xae, 0x3b, 0x57, 0x3e, 0xfe, 0xc3, 0x58, 0x3d,
  0x76, 0x12, 0x01, 0x3e, 0x39, 0xc9, 0xac, 0x3e, 0x88, 0x95, 0x1c, 0xbe,
  0x0f, 0x87, 0x24, 0x3e, 0xae, 0x3e, 0x23, 0x3e, 0xf8, 0x57, 0xfc, 0xbd,
  0x43, 0xa5, 0x81, 0x3e, 0x36, 0x24, 0x4c, 0x3e, 0xc9, 0x80, 0x9d, 0x3e,
  0x20, 0xa7, 0xf2, 0x3c, 0xb1, 0x2f, 0x98, 0x3e, 0x28, 0x31, 0x59, 0xbe,
  0x5b, 0x62, 0xff, 0xbe, 0xd2, 0xdf, 0xaf, 0xbe, 0xdc, 0xc8, 0xca, 0xbd,
  0x6c, 0x92, 0x6d, 0x3e, 0x36, 0x3a, 0x03, 0x3e, 0xe0, 0x25, 0x1b, 0xbe,
  0x9f, 0x52, 0x56, 0xbe, 0x48, 0x0c, 0xc9, 0xbe, 0xba, 0x3e, 0x65, 0xbe,
  0x2a, 0xc4, 0x0f, 0x3e, 0x10, 0xe7, 0xd8, 0xbd, 0xe8, 0x78, 0x7e, 0x3d,
  0x00, 0x4a, 0x12, 0xbc, 0xa0, 0xf7, 0x08, 0x3c, 0x60, 0xe9, 0x77, 0xbd,
  0x93, 0x68, 0x9b, 0x3e, 0xd9, 0x2e, 0x99, 0xbe, 0x27, 0x2f, 0x90, 0xbe,
  0xa5, 0x2f, 0xcf, 0x3e, 0x12, 0x7c, 0x38, 0x3e, 0x85, 0x29, 0x85, 0xbe,
  0x1c, 0x1a, 0x8d, 0xbe, 0xa0, 0xfb, 0xa4, 0xbe, 0x8d, 0x22, 0xb4, 0x3e,
  0x23, 0x2b, 0xa0, 0x3e, 0x00, 0xa2, 0x80, 0x3a, 0x4a, 0x34, 0x50, 0x3e,
  0xb1, 0x0a, 0xf5, 0x3e, 0x85, 0x7a, 0xb8, 0x3e, 0x21, 0x38, 0xb0, 0xbe,
  0xe8, 0x44, 0xe7, 0xbd, 0x86, 0x12, 0x7c, 0x3e, 0x69, 0x1a, 0x91, 0x3d,
  0x60, 0xe1, 0xb4, 0xbe, 0xbc, 0x95, 0xb9, 0xbe, 0xe2, 0x58, 0x8c, 0x3e,
  0xf4, 0xe1, 0xb4, 0x3d, 0x50, 0x64, 0x94, 0xbe, 0x80, 0x17, 0x03, 0x3e,
  0x4f, 0x5c, 0x0e, 0x3f, 0x5f, 0xc8, 0x5e, 0xbe, 0xc4, 0x86, 0x34, 0xbe,
  0xb7, 0x5d, 0xa2, 0xbe, 0x59, 0x1d, 0xf9, 0xbe, 0x88, 0x5b, 0x82, 0xbd,
  0xfd, 0x3c, 0x91, 0x3e, 0x18, 0x90, 0x0b, 0xbd, 0xde, 0xb9, 0x26, 0x3e,
  0xeb, 0x85, 0xbe, 0xbe, 0x78, 0x11, 0x63, 0x3d, 0xa4, 0x6d, 0x8c, 0x3d,
  0x6b, 0x11, 0xb3, 0x3e, 0x48, 0x6d, 0x85, 0xbd, 0xbb, 0x4c, 0x83, 0x3e,
  0xfd, 0x1c, 0x03, 0xbf, 0xca, 0xd9, 0x00, 0xbd, 0xc7, 0xd2, 0xd3, 0x3e,
  0x71, 0x38, 0xae, 0xbe, 0x40, 0x95, 0xd9, 0x3c, 0xbc, 0x46, 0xfd, 0x3e,
  0x98, 0x05, 0x9c, 0xbe, 0x66, 0xd9, 0xa8, 0xbe, 0x94, 0xe5, 0xae, 0xbe,
  0x73, 0x4a, 0xcd, 0x3e, 0xef, 0xa5, 0xa7, 0x3e, 0x84, 0x9f, 0xd3, 0xbd,
  0x50, 0xd1, 0x53, 0x3d, 0xd4, 0xb1, 0x8f, 0xbf, 0x4e, 0xb3, 0x79, 0x3e,
  0x88, 0x80, 0x24, 0x3d, 0xf1, 0x31, 0x58, 0xbe, 0x5e, 0x11, 0x5b, 0x3e,
  0x3b, 0xcd, 0x70, 0xbe, 0xd5, 0x8e, 0xae, 0x3e, 0x76, 0xbb, 0x75, 0xbe,
  0xa5, 0xd0, 0xe6, 0x3d, 0xdb, 0x2e, 0x88, 0x3e, 0xe3, 0x29, 0xc8, 0x3e,
  0xe7, 0xd9, 0x80, 0x3e, 0x2c, 0xa1, 0x84, 0xbd, 0xab, 0xed, 0x73, 0xbe,
  0x58, 0x35, 0x40, 0xbe, 0x6c, 0xd2, 0x22, 0xbe, 0xf2, 0xc0, 0xbd, 0xbe,
  0x03, 0xec, 0xdb, 0xbe, 0x88, 0xc4, 0x98, 0xbe, 0x20, 0x52, 0x89, 0x3d,
  0x76, 0x83, 0x42, 0x3e, 0xee, 0xe5, 0x3a, 0xbe, 0x5d, 0xf9, 0x43, 0xbe,
  0xdc, 0xfd, 0x82, 0x3d, 0xd0, 0x48, 0x08, 0x3e, 0x00, 0x2f, 0x4a, 0x3b,
  0xce, 0x73, 0x4a, 0x3e, 0xc0, 0x29, 0x31, 0xbc, 0x03, 0x88, 0x85, 0x3e,
  0x25, 0x65, 0x0b, 0x3e, 0x75, 0xb7, 0x95, 0x3e, 0x96, 0x7a, 0x9c, 0xbe,
  0x21, 0x99, 0xb6, 0xbe, 0xae, 0x19, 0x50, 0x3e, 0x27, 0x6b, 0xcc, 0xbe,
  0xc9, 0x92, 0x95, 0xbe, 0x8a, 0x44, 0x3b, 0xbf, 0x0d, 0xdc, 0xda, 0x3e,
  0xd7, 0xa7, 0xbc, 0xbe, 0xd6, 0x4f, 0x23, 0xbe, 0x01, 0x8b, 0x0e, 0x3f,
  0xb2, 0x3c, 0xd0, 0xbe, 0xa2, 0x11, 0x84, 0xbe, 0x56, 0x59, 0x91, 0xbe,
  0xc9, 0xea, 0x9b, 0xbe, 0xa1, 0x08, 0xc1, 0x3e, 0xb4, 0x8b, 0xb3, 0xbd,
  0x28, 0xbc, 0xea, 0xbd, 0xb7, 0x1d, 0xae, 0xbe, 0x6e, 0x38, 0x53, 0x3e,
  0x22, 0x3f, 0xb7, 0xbe, 0x28, 0x3f, 0xf5, 0x3e, 0x26, 0x1b, 0x02, 0x3e,
  0xbb, 0xa5, 0x95, 0x3e, 0xa2, 0xcb, 0x81, 0xbe, 0x18, 0xdd, 0xb3, 0xbe,
  0xc0, 0x45, 0x2c, 0xbe, 0x06, 0x23, 0x18, 0x3e, 0x2e, 0x59, 0x59, 0x3e,
  0xdc, 0x56, 0xf7, 0x3d, 0xb6, 0xf3, 0x40, 0x3e, 0x55, 0xe1, 0x4d, 0xbe,
  0xb9, 0xd5, 0xc8, 0x3e, 0xa8, 0x7e, 0x4a, 0xbd, 0x7a, 0x57, 0xb4, 0xbe,
  0x1a, 0x49, 0x56, 0x3e, 0x80, 0x79, 0xf4, 0xbc, 0xd6, 0x9b, 0x36, 0x3e,
  0xc5, 0x7b, 0x39, 0xbf, 0xe4, 0x47, 0xae, 0x3d, 0x1a, 0x91, 0xab, 0xbe,
  0x41, 0x94, 0x9e, 0x3e, 0x6a, 0xd0, 0xad, 0x3e, 0xf0, 0x3f, 0x48, 0xbd,
  0x96, 0x57, 0x56, 0x3e, 0xed, 0x16, 0xc8, 0xbe, 0x11, 0xe3, 0xd1, 0x3e,
  0x0e, 0x32, 0x99, 0x3e, 0xbb, 0x23, 0x86, 0x3e, 0xb2, 0x45, 0xc1, 0xbe,
  0xd9, 0x42, 0x65, 0xbf, 0x4a, 0xda, 0x5a, 0x3e, 0xb5, 0xab, 0xa4, 0x3e,
  0xfc, 0x14, 0x86, 0x3e, 0xf0, 0x7c, 0x53, 0xbe, 0xe6, 0xb7, 0xcb, 0xbe,
  0xef, 0x28, 0x89, 0x3e, 0x70, 0xb1, 0x6e, 0xbd, 0x5d, 0x07, 0x05, 0x3e,
  0xe2, 0x5c, 0x0c, 0xbe, 0xbf, 0x92, 0xad, 0x3e, 0x10, 0x09, 0x4e, 0xbd,
  0x00, 0x25, 0xb8, 0xbc, 0x22, 0x5a, 0x48, 0xbe, 0xdd, 0x90, 0x9f, 0x3e,
  0x84, 0x38, 0xdb, 0x3d, 0xb6, 0x0c, 0xeb, 0x3d, 0x78, 0xf2, 0x77, 0x3d,
  0x78, 0xe2, 0x73, 0xbd, 0x71, 0xc1, 0x85, 0x3e, 0xef, 0xca, 0x1c, 0xbf,
  0x26, 0x17, 0x3c, 0x3e, 0xc1, 0x61, 0x4d, 0xbe, 0x3e, 0x77, 0x47, 0x3e,
  0x64, 0x0e, 0xdb, 0x3e, 0x86, 0xae, 0x4f, 0x3e, 0x6b, 0x97, 0x99, 0x3e,
  0x7e, 0x06, 0x03, 0x3e, 0x30, 0x82, 0xdc, 0xbd, 0xb6, 0xa4, 0x0d, 0x3d,
  0x00, 0xc4, 0x9f, 0xbd, 0x02, 0xf4, 0x8d, 0xbe, 0x2e, 0xf5, 0xfb, 0xbd,
  0x93, 0x8b, 0xaa, 0xbe, 0xb4, 0x61, 0xdf, 0x3d, 0x6c, 0xfb, 0x0d, 0x3e,
  0x1a, 0xff, 0xff, 0xff, 0x04, 0x00, 0x00, 0x00, 0x40, 0x00, 0x00, 0x00,
  0x02, 0xfa, 0xb9, 0x3e, 0xe0, 0x2b, 0x65, 0xbd, 0x80, 0xb0, 0x67, 0xbe,
  0x20, 0x5c, 0x5f, 0xbd, 0x47, 0x06, 0xd4, 0xbc, 0xf2, 0x7b, 0x15, 0xbf,
  0x4f, 0xeb, 0x8b, 0xbe, 0xc5, 0xcd, 0x08, 0xbf, 0xf2, 0x2d, 0x04, 0xbe,
  0xd0, 0x0c, 0x79, 0x3d, 0x00, 0x40, 0xff, 0xba, 0x63, 0x0b, 0xc1, 0xbe,
  0x98, 0xa8, 0x16, 0x3f, 0x57, 0x70, 0x93, 0xbe, 0x8d, 0x6f, 0x9b, 0xbe,
  0x92, 0xe4, 0xcb, 0x3d, 0x66, 0xff, 0xff, 0xff, 0x04, 0x00, 0x00, 0x00,
  0x40, 0x00, 0x00, 0x00, 0x3a, 0x60, 0x58, 0xbf, 0x00, 0x00, 0x00, 0x00,
  0x00, 0x00, 0x00, 0x00, 0x00, 0x00, 0x00, 0x00, 0xa1, 0xbe, 0x19, 0x3f,
  0x00, 0x00, 0x00, 0x00, 0x00, 0x00, 0x00, 0x00, 0x00, 0x00, 0x00, 0x00,
  0x00, 0x00, 0x00, 0x00, 0x4d, 0x37, 0x1c, 0x3f, 0x00, 0x00, 0x00, 0x00,
  0x00, 0x00, 0x00, 0x00, 0x0e, 0x76, 0x5f, 0xbb, 0x00, 0x00, 0x00, 0x00,
  0x00, 0x00, 0x00, 0x00, 0xbe, 0x9a, 0x06, 0x3f, 0xb2, 0xff, 0xff, 0xff,
  0x04, 0x00, 0x00, 0x00, 0x40, 0x00, 0x00, 0x00, 0x83, 0x14, 0x02, 0x3e,
  0xf7, 0x82, 0xd4, 0xbe, 0x01, 0x30, 0x83, 0x3e, 0x45, 0xd4, 0xaa, 0xbc,
  0x97, 0x20, 0xa8, 0xbe, 0x00, 0x00, 0x00, 0x00, 0x41, 0x4a, 0xfc, 0x3d,
  0xb2, 0x47, 0xe6, 0xbe, 0xd9, 0x4b, 0xa5, 0x3e, 0xb0, 0xda, 0x4c, 0xbc,
  0x2c, 0x32, 0xcf, 0xbc, 0x54, 0x06, 0xa9, 0x3e, 0x00, 0x00, 0x00, 0x00,
  0xed, 0xe2, 0x92, 0x3e, 0x51, 0x53, 0xc8, 0xbd, 0x57, 0xd3, 0x68, 0x3e,
  0x00, 0x00, 0x06, 0x00, 0x08, 0x00, 0x04, 0x00, 0x06, 0x00, 0x00, 0x00,
  0x04, 0x00, 0x00, 0x00, 0x04, 0x00, 0x00, 0x00, 0xc7, 0xa7, 0x1d, 0xbe,
  0x90, 0xfb, 0xff, 0xff, 0x94, 0xfb, 0xff, 0xff, 0x0f, 0x00, 0x00, 0x00,
  0x4d, 0x4c, 0x49, 0x52, 0x20, 0x43, 0x6f, 0x6e, 0x76, 0x65, 0x72, 0x74,
  0x65, 0x64, 0x2e, 0x00, 0x01, 0x00, 0x00, 0x00, 0x14, 0x00, 0x00, 0x00,
  0x00, 0x00, 0x0e, 0x00, 0x18, 0x00, 0x14, 0x00, 0x10, 0x00, 0x0c, 0x00,
  0x08, 0x00, 0x04, 0x00, 0x0e, 0x00, 0x00, 0x00, 0x14, 0x00, 0x00, 0x00,
  0x1c, 0x00, 0x00, 0x00, 0xd8, 0x00, 0x00, 0x00, 0xdc, 0x00, 0x00, 0x00,
  0xe0, 0x00, 0x00, 0x00, 0x04, 0x00, 0x00, 0x00, 0x6d, 0x61, 0x69, 0x6e,
  0x00, 0x00, 0x00, 0x00, 0x03, 0x00, 0x00, 0x00, 0x80, 0x00, 0x00, 0x00,
  0x38, 0x00, 0x00, 0x00, 0x04, 0x00, 0x00, 0x00, 0x9a, 0xff, 0xff, 0xff,
  0x10, 0x00, 0x00, 0x00, 0x00, 0x00, 0x00, 0x08, 0x0c, 0x00, 0x00, 0x00,
  0x10, 0x00, 0x00, 0x00, 0x0c, 0xfc, 0xff, 0xff, 0x01, 0x00, 0x00, 0x00,
  0x09, 0x00, 0x00, 0x00, 0x03, 0x00, 0x00, 0x00, 0x08, 0x00, 0x00, 0x00,
  0x06, 0x00, 0x00, 0x00, 0x01, 0x00, 0x00, 0x00, 0xca, 0xff, 0xff, 0xff,
  0x10, 0x00, 0x00, 0x00, 0x00, 0x00, 0x00, 0x08, 0x10, 0x00, 0x00, 0x00,
  0x14, 0x00, 0x00, 0x00, 0xba, 0xff, 0xff, 0xff, 0x00, 0x00, 0x00, 0x01,
  0x01, 0x00, 0x00, 0x00, 0x08, 0x00, 0x00, 0x00, 0x03, 0x00, 0x00, 0x00,
  0x07, 0x00, 0x00, 0x00, 0x05, 0x00, 0x00, 0x00, 0x02, 0x00, 0x00, 0x00,
  0x00, 0x00, 0x0e, 0x00, 0x16, 0x00, 0x00, 0x00, 0x10, 0x00, 0x0c, 0x00,
  0x0b, 0x00, 0x04, 0x00, 0x0e, 0x00, 0x00, 0x00, 0x18, 0x00, 0x00, 0x00,
  0x00, 0x00, 0x00, 0x08, 0x18, 0x00, 0x00, 0x00, 0x1c, 0x00, 0x00, 0x00,
  0x00, 0x00, 0x06, 0x00, 0x08, 0x00, 0x07, 0x00, 0x06, 0x00, 0x00, 0x00,
  0x00, 0x00, 0x00, 0x01, 0x01, 0x00, 0x00, 0x00, 0x07, 0x00, 0x00, 0x00,
  0x03, 0x00, 0x00, 0x00, 0x00, 0x00, 0x00, 0x00, 0x04, 0x00, 0x00, 0x00,
  0x03, 0x00, 0x00, 0x00, 0x01, 0x00, 0x00, 0x00, 0x09, 0x00, 0x00, 0x00,
  0x01, 0x00, 0x00, 0x00, 0x00, 0x00, 0x00, 0x00, 0x0a, 0x00, 0x00, 0x00,
  0x20, 0x03, 0x00, 0x00, 0xd4, 0x02, 0x00, 0x00, 0x8c, 0x02, 0x00, 0x00,
  0x54, 0x02, 0x00, 0x00, 0x0c, 0x02, 0x00, 0x00, 0xc4, 0x01, 0x00, 0x00,
  0x7c, 0x01, 0x00, 0x00, 0xec, 0x00, 0x00, 0x00, 0x5c, 0x00, 0x00, 0x00,
  0x04, 0x00, 0x00, 0x00, 0x1c, 0xfd, 0xff, 0xff, 0x14, 0x00, 0x00, 0x00,
  0x1c, 0x00, 0x00, 0x00, 0x1c, 0x00, 0x00, 0x00, 0x0a, 0x00, 0x00, 0x00,
  0x34, 0x00, 0x00, 0x00, 0x02, 0x00, 0x00, 0x00, 0xff, 0xff, 0xff, 0xff,
  0x01, 0x00, 0x00, 0x00, 0x08, 0xfd, 0xff, 0xff, 0x19, 0x00, 0x00, 0x00,
  0x53, 0x74, 0x61, 0x74, 0x65, 0x66, 0x75, 0x6c, 0x50, 0x61, 0x72, 0x74,
  0x69, 0x74, 0x69, 0x6f, 0x6e, 0x65, 0x64, 0x43, 0x61, 0x6c, 0x6c, 0x3a,
  0x30, 0x00, 0x00, 0x00, 0x02, 0x00, 0x00, 0x00, 0x01, 0x00, 0x00, 0x00,
  0x01, 0x00, 0x00, 0x00, 0x70, 0xfd, 0xff, 0xff, 0x14, 0x00, 0x00, 0x00,
  0x1c, 0x00, 0x00, 0x00, 0x1c, 0x00, 0x00, 0x00, 0x09, 0x00, 0x00, 0x00,
  0x6c, 0x00, 0x00, 0x00, 0x02, 0x00, 0x00, 0x00, 0xff, 0xff, 0xff, 0xff,
  0x10, 0x00, 0x00, 0x00, 0x5c, 0xfd, 0xff, 0xff, 0x52, 0x00, 0x00, 0x00,
  0x73, 0x65, 0x71, 0x75, 0x65, 0x6e, 0x74, 0x69, 0x61, 0x6c, 0x5f, 0x31,
  0x2f, 0x64, 0x65, 0x6e, 0x73, 0x65, 0x5f, 0x33, 0x2f, 0x4d, 0x61, 0x74,
  0x4d, 0x75, 0x6c, 0x3b, 0x73, 0x65, 0x71, 0x75, 0x65, 0x6e, 0x74, 0x69,
  0x61, 0x6c, 0x5f, 0x31, 0x2f, 0x64, 0x65, 0x6e, 0x73, 0x65, 0x5f, 0x33,
  0x2f, 0x52, 0x65, 0x6c, 0x75, 0x3b, 0x73, 0x65, 0x71, 0x75, 0x65, 0x6e,
  0x74, 0x69, 0x61, 0x6c, 0x5f, 0x31, 0x2f, 0x64, 0x65, 0x6e, 0x73, 0x65,
  0x5f, 0x33, 0x2f, 0x42, 0x69, 0x61, 0x73, 0x41, 0x64, 0x64, 0x00, 0x00,
  0x02, 0x00, 0x00, 0x00, 0x01, 0x00, 0x00, 0x00, 0x10, 0x00, 0x00, 0x00,
  0xfc, 0xfd, 0xff, 0xff, 0x14, 0x00, 0x00, 0x00, 0x1c, 0x00, 0x00, 0x00,
  0x1c, 0x00, 0x00, 0x00, 0x08, 0x00, 0x00, 0x00, 0x6c, 0x00, 0x00, 0x00,
  0x02, 0x00, 0x00, 0x00, 0xff, 0xff, 0xff, 0xff, 0x10, 0x00, 0x00, 0x00,
  0xe8, 0xfd, 0xff, 0xff, 0x52, 0x00, 0x00, 0x00, 0x73, 0x65, 0x71, 0x75,
  0x65, 0x6e, 0x74, 0x69, 0x61, 0x6c, 0x5f, 0x31, 0x2f, 0x64, 0x65, 0x6e,
  0x73, 0x65, 0x5f, 0x32, 0x2f, 0x4d, 0x61, 0x74, 0x4d, 0x75, 0x6c, 0x3b,
  0x73, 0x65, 0x71, 0x75, 0x65, 0x6e, 0x74, 0x69, 0x61, 0x6c, 0x5f, 0x31,
  0x2f, 0x64, 0x65, 0x6e, 0x73, 0x65, 0x5f, 0x32, 0x2f, 0x52, 0x65, 0x6c,
  0x75, 0x3b, 0x73, 0x65, 0x71, 0x75, 0x65, 0x6e, 0x74, 0x69, 0x61, 0x6c,
  0x5f, 0x31, 0x2f, 0x64, 0x65, 0x6e, 0x73, 0x65, 0x5f, 0x32, 0x2f, 0x42,
  0x69, 0x61, 0x73, 0x41, 0x64, 0x64, 0x00, 0x00, 0x02, 0x00, 0x00, 0x00,
  0x01, 0x00, 0x00, 0x00, 0x10, 0x00, 0x00, 0x00, 0xca, 0xfe, 0xff, 0xff,
  0x10, 0x00, 0x00, 0x00, 0x10, 0x00, 0x00, 0x00, 0x07, 0x00, 0x00, 0x00,
  0x28, 0x00, 0x00, 0x00, 0x64, 0xfe, 0xff, 0xff, 0x1b, 0x00, 0x00, 0x00,
  0x73, 0x65, 0x71, 0x75, 0x65, 0x6e, 0x74, 0x69, 0x61, 0x6c, 0x5f, 0x31,
  0x2f, 0x64, 0x65, 0x6e, 0x73, 0x65, 0x5f, 0x34, 0x2f, 0x4d, 0x61, 0x74,
  0x4d, 0x75, 0x6c, 0x00, 0x02, 0x00, 0x00, 0x00, 0x01, 0x00, 0x00, 0x00,
  0x10, 0x00, 0x00, 0x00, 0x0e, 0xff, 0xff, 0xff, 0x10, 0x00, 0x00, 0x00,
  0x10, 0x00, 0x00, 0x00, 0x06, 0x00, 0x00, 0x00, 0x28, 0x00, 0x00, 0x00,
  0xa8, 0xfe, 0xff, 0xff, 0x1b, 0x00, 0x00, 0x00, 0x73, 0x65, 0x71, 0x75,
  0x65, 0x6e, 0x74, 0x69, 0x61, 0x6c, 0x5f, 0x31, 0x2f, 0x64, 0x65, 0x6e,
  0x73, 0x65, 0x5f, 0x33, 0x2f, 0x4d, 0x61, 0x74, 0x4d, 0x75, 0x6c, 0x00,
  0x02, 0x00, 0x00, 0x00, 0x10, 0x00, 0x00, 0x00, 0x10, 0x00, 0x00, 0x00,
  0x52, 0xff, 0xff, 0xff, 0x10, 0x00, 0x00, 0x00, 0x10, 0x00, 0x00, 0x00,
  0x05, 0x00, 0x00, 0x00, 0x28, 0x00, 0x00, 0x00, 0xec, 0xfe, 0xff, 0xff,
  0x1b, 0x00, 0x00, 0x00, 0x73, 0x65, 0x71, 0x75, 0x65, 0x6e, 0x74, 0x69,
  0x61, 0x6c, 0x5f, 0x31, 0x2f, 0x64, 0x65, 0x6e, 0x73, 0x65, 0x5f, 0x32,
  0x2f, 0x4d, 0x61, 0x74, 0x4d, 0x75, 0x6c, 0x00, 0x02, 0x00, 0x00, 0x00,
  0x10, 0x00, 0x00, 0x00, 0x01, 0x00, 0x00, 0x00, 0x96, 0xff, 0xff, 0xff,
  0x10, 0x00, 0x00, 0x00, 0x10, 0x00, 0x00, 0x00, 0x04, 0x00, 0x00, 0x00,
  0x1c, 0x00, 0x00, 0x00, 0x30, 0xff, 0xff, 0xff, 0x0c, 0x00, 0x00, 0x00,
  0x64, 0x65, 0x6e, 0x73, 0x65, 0x5f, 0x32, 0x2f, 0x62, 0x69, 0x61, 0x73,
  0x00, 0x00, 0x00, 0x00, 0x01, 0x00, 0x00, 0x00, 0x10, 0x00, 0x00, 0x00,
  0xca, 0xff, 0xff, 0xff, 0x10, 0x00, 0x00, 0x00, 0x10, 0x00, 0x00, 0x00,
  0x03, 0x00, 0x00, 0x00, 0x1c, 0x00, 0x00, 0x00, 0x64, 0xff, 0xff, 0xff,
  0x0c, 0x00, 0x00, 0x00, 0x64, 0x65, 0x6e, 0x73, 0x65, 0x5f, 0x33, 0x2f,
  0x62, 0x69, 0x61, 0x73, 0x00, 0x00, 0x00, 0x00, 0x01, 0x00, 0x00, 0x00,
  0x10, 0x00, 0x00, 0x00, 0x00, 0x00, 0x0e, 0x00, 0x14, 0x00, 0x10, 0x00,
  0x00, 0x00, 0x0c, 0x00, 0x08, 0x00, 0x04, 0x00, 0x0e, 0x00, 0x00, 0x00,
  0x10, 0x00, 0x00, 0x00, 0x10, 0x00, 0x00, 0x00, 0x02, 0x00, 0x00, 0x00,
  0x1c, 0x00, 0x00, 0x00, 0xa8, 0xff, 0xff, 0xff, 0x0c, 0x00, 0x00, 0x00,
  0x64, 0x65, 0x6e, 0x73, 0x65, 0x5f, 0x34, 0x2f, 0x62, 0x69, 0x61, 0x73,
  0x00, 0x00, 0x00, 0x00, 0x01, 0x00, 0x00, 0x00, 0x01, 0x00, 0x00, 0x00,
  0x14, 0x00, 0x18, 0x00, 0x14, 0x00, 0x00, 0x00, 0x10, 0x00, 0x0c, 0x00,
  0x08, 0x00, 0x00, 0x00, 0x00, 0x00, 0x04, 0x00, 0x14, 0x00, 0x00, 0x00,
  0x14, 0x00, 0x00, 0x00, 0x20, 0x00, 0x00, 0x00, 0x20, 0x00, 0x00, 0x00,
  0x01, 0x00, 0x00, 0x00, 0x3c, 0x00, 0x00, 0x00, 0x02, 0x00, 0x00, 0x00,
  0xff, 0xff, 0xff, 0xff, 0x01, 0x00, 0x00, 0x00, 0x04, 0x00, 0x04, 0x00,
  0x04, 0x00, 0x00, 0x00, 0x1f, 0x00, 0x00, 0x00, 0x73, 0x65, 0x72, 0x76,
  0x69, 0x6e, 0x67, 0x5f, 0x64, 0x65, 0x66, 0x61, 0x75, 0x6c, 0x74, 0x5f,
  0x64, 0x65, 0x6e, 0x73, 0x65, 0x5f, 0x32, 0x5f, 0x69, 0x6e, 0x70, 0x75,
  0x74, 0x3a, 0x30, 0x00, 0x02, 0x00, 0x00, 0x00, 0x01, 0x00, 0x00, 0x00,
  0x01, 0x00, 0x00, 0x00, 0x01, 0x00, 0x00, 0x00, 0x10, 0x00, 0x00, 0x00,
  0x0c, 0x00, 0x10, 0x00, 0x0f, 0x00, 0x00, 0x00, 0x08, 0x00, 0x04, 0x00,
  0x0c, 0x00, 0x00, 0x00, 0x09, 0x00, 0x00, 0x00, 0x09, 0x00, 0x00, 0x00,
  0x00, 0x00, 0x00, 0x09
};
unsigned int sine_model_quantized_tflite_len = 2920;
